FD
17
C0
56
C4
20
C0
30
4E
81
40
F4
07
F5
04
BF
52
0C
B1
36
BB
EE
17
32
81
CA
E8
F3
3B
D8
3C
BF
3D
34
34
67
37
42
E1
9B
D4
81
CB
3C
FD
A4
34
0A
49
AC
81
C3
9C
6F
3D
4F
30
09
60
A3
07
CE
54
D2
08
DC
52
E6
CB
C1
55
09
7F
B8
CB
9E
A4
2F
20
4B
A8
81
27
CE
4E
0D
7C
E0
08
56
D1
DF
59
56
F6
EA
7F
05
F0
AE
C2
0A
F2
E1
03
F4
F4
FB
1D
04
7F
20
3B
CB
F3
FF
18
97
97
81
39
E5
1F
B3
AE
C2
BD
9E
66
F6
7F
46
B9
6F
0D
B2
81
9D
54
C6
F0
B5
76
E0
D9
F5
02
13
31
C9
2A
BB
E9
AC
54
85
0D
0B
16
B6
7F
21
0C
8C
33
E8
E4
48
22
C7
C4
E8
42
F2
AE
D2
CD
43
5A
81
0F
27
07
F9
30
D4
F8
EF
C7
D6
9C
AC
53
7F
18
D5
26
2F
1C
05
B0
C9
7F
42
0C
D7
C4
BE
E2
3C
7F
31
C7
CA
E3
2D
02
1C
36
FB
EE
52
D6
E5
94
4C
64
56
A3
91
81
73
78
7D
42
1A
F7
86
84
82
